<?xml version="1.0" encoding="UTF-8" standalone="yes"?>
<PMML xmlns="http://www.dmg.org/PMML-4_4" xmlns:data="http://jpmml.org/jpmml-model/InlineTable" version="4.4">
	<Header>
		<Application name="JPMML-SkLearn" version="1.6.28"/>
		<Timestamp>2021-09-19T03:34:23Z</Timestamp>
	</Header>
	<MiningBuildTask>
		<Extension name="repr">PMMLPipeline(steps=[('RandomForest', RandomForestRegressor(max_depth=2, random_state=0))])</Extension>
	</MiningBuildTask>
	<DataDictionary>
		<DataField name="y" optype="continuous" dataType="double"/>
		<DataField name="x1" optype="continuous" dataType="float"/>
		<DataField name="x5" optype="continuous" dataType="float"/>
		<DataField name="x7" optype="continuous" dataType="float"/>
		<DataField name="x9" optype="continuous" dataType="float"/>
		<DataField name="x16" optype="continuous" dataType="float"/>
		<DataField name="x37" optype="continuous" dataType="float"/>
		<DataField name="x39" optype="continuous" dataType="float"/>
		<DataField name="x45" optype="continuous" dataType="float"/>
		<DataField name="x50" optype="continuous" dataType="float"/>
		<DataField name="x52" optype="continuous" dataType="float"/>
		<DataField name="x72" optype="continuous" dataType="float"/>
		<DataField name="x73" optype="continuous" dataType="float"/>
		<DataField name="x85" optype="continuous" dataType="float"/>
		<DataField name="x86" optype="continuous" dataType="float"/>
		<DataField name="x94" optype="continuous" dataType="float"/>
		<DataField name="x104" optype="continuous" dataType="float"/>
	</DataDictionary>
	<MiningModel functionName="regression" algorithmName="sklearn.ensemble._forest.RandomForestRegressor">
		<MiningSchema>
			<MiningField name="y" usageType="target"/>
			<MiningField name="x37"/>
			<MiningField name="x85"/>
			<MiningField name="x94"/>
			<MiningField name="x72"/>
			<MiningField name="x39"/>
			<MiningField name="x16"/>
			<MiningField name="x52"/>
			<MiningField name="x7"/>
			<MiningField name="x9"/>
			<MiningField name="x5"/>
			<MiningField name="x86"/>
			<MiningField name="x1"/>
			<MiningField name="x73"/>
			<MiningField name="x45"/>
			<MiningField name="x104"/>
			<MiningField name="x50"/>
		</MiningSchema>
		<LocalTransformations>
			<DerivedField name="double(x94)" optype="continuous" dataType="double">
				<FieldRef field="x94"/>
			</DerivedField>
			<DerivedField name="double(x72)" optype="continuous" dataType="double">
				<FieldRef field="x72"/>
			</DerivedField>
			<DerivedField name="double(x39)" optype="continuous" dataType="double">
				<FieldRef field="x39"/>
			</DerivedField>
			<DerivedField name="double(x16)" optype="continuous" dataType="double">
				<FieldRef field="x16"/>
			</DerivedField>
			<DerivedField name="double(x52)" optype="continuous" dataType="double">
				<FieldRef field="x52"/>
			</DerivedField>
			<DerivedField name="double(x7)" optype="continuous" dataType="double">
				<FieldRef field="x7"/>
			</DerivedField>
			<DerivedField name="double(x9)" optype="continuous" dataType="double">
				<FieldRef field="x9"/>
			</DerivedField>
			<DerivedField name="double(x5)" optype="continuous" dataType="double">
				<FieldRef field="x5"/>
			</DerivedField>
			<DerivedField name="double(x86)" optype="continuous" dataType="double">
				<FieldRef field="x86"/>
			</DerivedField>
			<DerivedField name="double(x1)" optype="continuous" dataType="double">
				<FieldRef field="x1"/>
			</DerivedField>
			<DerivedField name="double(x73)" optype="continuous" dataType="double">
				<FieldRef field="x73"/>
			</DerivedField>
			<DerivedField name="double(x45)" optype="continuous" dataType="double">
				<FieldRef field="x45"/>
			</DerivedField>
			<DerivedField name="double(x104)" optype="continuous" dataType="double">
				<FieldRef field="x104"/>
			</DerivedField>
			<DerivedField name="double(x50)" optype="continuous" dataType="double">
				<FieldRef field="x50"/>
			</DerivedField>
		</LocalTransformations>
		<Segmentation multipleModelMethod="average">
			<Segment id="1">
				<True/>
				<TreeModel functionName="regression" missingValueStrategy="nullPrediction" noTrueChildStrategy="returnLastPrediction">
					<MiningSchema>
						<MiningField name="double(x94)"/>
						<MiningField name="double(x72)"/>
					</MiningSchema>
					<Node score="10.098360655737705">
						<True/>
						<Node score="5.531914893617022">
							<SimplePredicate field="double(x94)" operator="lessOrEqual" value="0.6619733572006226"/>
							<Node score="14.0">
								<SimplePredicate field="double(x94)" operator="lessOrEqual" value="0.6034143269062042"/>
							</Node>
						</Node>
						<Node score="11.935897435897436">
							<SimplePredicate field="double(x72)" operator="lessOrEqual" value="0.5"/>
						</Node>
					</Node>
				</TreeModel>
			</Segment>
			<Segment id="2">
				<True/>
				<TreeModel functionName="regression" missingValueStrategy="nullPrediction" noTrueChildStrategy="returnLastPrediction">
					<MiningSchema>
						<MiningField name="double(x94)"/>
						<MiningField name="double(x39)"/>
					</MiningSchema>
					<Node score="10.318840579710145">
						<True/>
						<Node score="12.153846153846153">
							<SimplePredicate field="double(x94)" operator="lessOrEqual" value="0.6619733572006226"/>
							<Node score="4.428571428571429">
								<SimplePredicate field="double(x39)" operator="lessOrEqual" value="0.25"/>
							</Node>
						</Node>
						<Node score="12.235294117647058">
							<SimplePredicate field="double(x94)" operator="lessOrEqual" value="0.6858969926834106"/>
						</Node>
					</Node>
				</TreeModel>
			</Segment>
			<Segment id="3">
				<True/>
				<TreeModel functionName="regression" missingValueStrategy="nullPrediction" noTrueChildStrategy="returnLastPrediction">
					<MiningSchema>
						<MiningField name="double(x94)"/>
						<MiningField name="double(x16)"/>
						<MiningField name="double(x52)"/>
					</MiningSchema>
					<Node score="10.178217821782178">
						<True/>
						<Node score="10.823529411764707">
							<SimplePredicate field="double(x16)" operator="lessOrEqual" value="0.48076922446489334"/>
							<Node score="14.0">
								<SimplePredicate field="double(x52)" operator="lessOrEqual" value="0.04838709533214569"/>
							</Node>
						</Node>
						<Node score="6.5">
							<SimplePredicate field="double(x94)" operator="lessOrEqual" value="0.6619733572006226"/>
						</Node>
					</Node>
				</TreeModel>
			</Segment>
			<Segment id="4">
				<True/>
				<TreeModel functionName="regression" missingValueStrategy="nullPrediction" noTrueChildStrategy="returnLastPrediction">
					<MiningSchema>
						<MiningField name="double(x94)"/>
						<MiningField name="double(x39)"/>
					</MiningSchema>
					<Node score="10.263565891472869">
						<True/>
						<Node score="11.818181818181818">
							<SimplePredicate field="double(x94)" operator="lessOrEqual" value="0.6619733572006226"/>
							<Node score="4.523809523809524">
								<SimplePredicate field="double(x39)" operator="lessOrEqual" value="0.25"/>
							</Node>
						</Node>
						<Node score="12.21875">
							<SimplePredicate field="double(x94)" operator="lessOrEqual" value="0.6858969926834106"/>
						</Node>
					</Node>
				</TreeModel>
			</Segment>
			<Segment id="5">
				<True/>
				<TreeModel functionName="regression" missingValueStrategy="nullPrediction" noTrueChildStrategy="returnLastPrediction">
					<MiningSchema>
						<MiningField name="double(x94)"/>
						<MiningField name="double(x16)"/>
						<MiningField name="double(x7)"/>
					</MiningSchema>
					<Node score="9.62406015037594">
						<True/>
						<Node score="11.990654205607477">
							<SimplePredicate field="double(x16)" operator="lessOrEqual" value="0.48076922446489334"/>
							<Node score="3.0">
								<SimplePredicate field="double(x7)" operator="lessOrEqual" value="-3.2200000286102295"/>
							</Node>
						</Node>
						<Node score="3.0">
							<SimplePredicate field="double(x94)" operator="lessOrEqual" value="0.6186458170413971"/>
						</Node>
					</Node>
				</TreeModel>
			</Segment>
			<Segment id="6">
				<True/>
				<TreeModel functionName="regression" missingValueStrategy="nullPrediction" noTrueChildStrategy="returnLastPrediction">
					<MiningSchema>
						<MiningField name="double(x94)"/>
					</MiningSchema>
					<Node score="10.299212598425196">
						<True/>
						<Node score="5.470588235294118">
							<SimplePredicate field="double(x94)" operator="lessOrEqual" value="0.6619733572006226"/>
							<Node score="14.0">
								<SimplePredicate field="double(x94)" operator="lessOrEqual" value="0.6034143269062042"/>
							</Node>
						</Node>
						<Node score="11.84375">
							<SimplePredicate field="double(x94)" operator="lessOrEqual" value="0.6858969926834106"/>
						</Node>
					</Node>
				</TreeModel>
			</Segment>
			<Segment id="7">
				<True/>
				<TreeModel functionName="regression" missingValueStrategy="nullPrediction" noTrueChildStrategy="returnLastPrediction">
					<MiningSchema>
						<MiningField name="double(x94)"/>
						<MiningField name="double(x16)"/>
						<MiningField name="double(x9)"/>
					</MiningSchema>
					<Node score="10.18018018018018">
						<True/>
						<Node score="10.960526315789474">
							<SimplePredicate field="double(x16)" operator="lessOrEqual" value="0.48076922446489334"/>
							<Node score="14.0">
								<SimplePredicate field="double(x9)" operator="lessOrEqual" value="0.04838709533214569"/>
							</Node>
						</Node>
						<Node score="6.255813953488372">
							<SimplePredicate field="double(x94)" operator="lessOrEqual" value="0.6619733572006226"/>
						</Node>
					</Node>
				</TreeModel>
			</Segment>
			<Segment id="8">
				<True/>
				<TreeModel functionName="regression" missingValueStrategy="nullPrediction" noTrueChildStrategy="returnLastPrediction">
					<MiningSchema>
						<MiningField name="double(x94)"/>
						<MiningField name="double(x39)"/>
						<MiningField name="double(x5)"/>
					</MiningSchema>
					<Node score="10.65">
						<True/>
						<Node score="10.53125">
							<SimplePredicate field="double(x39)" operator="lessOrEqual" value="0.25"/>
							<Node score="4.2">
								<SimplePredicate field="double(x94)" operator="lessOrEqual" value="0.6619733572006226"/>
							</Node>
						</Node>
						<Node score="13.714285714285714">
							<SimplePredicate field="double(x5)" operator="lessOrEqual" value="0.04838709533214569"/>
						</Node>
					</Node>
				</TreeModel>
			</Segment>
			<Segment id="9">
				<True/>
				<TreeModel functionName="regression" missingValueStrategy="nullPrediction" noTrueChildStrategy="returnLastPrediction">
					<MiningSchema>
						<MiningField name="double(x94)"/>
						<MiningField name="double(x39)"/>
					</MiningSchema>
					<Node score="10.341269841269842">
						<True/>
						<Node score="11.4">
							<SimplePredicate field="double(x94)" operator="lessOrEqual" value="0.6619733572006226"/>
							<Node score="4.0">
								<SimplePredicate field="double(x39)" operator="lessOrEqual" value="0.25"/>
							</Node>
						</Node>
						<Node score="12.088235294117647">
							<SimplePredicate field="double(x94)" operator="lessOrEqual" value="0.6858969926834106"/>
						</Node>
					</Node>
				</TreeModel>
			</Segment>
			<Segment id="10">
				<True/>
				<TreeModel functionName="regression" missingValueStrategy="nullPrediction" noTrueChildStrategy="returnLastPrediction">
					<MiningSchema>
						<MiningField name="double(x94)"/>
						<MiningField name="double(x39)"/>
					</MiningSchema>
					<Node score="10.271186440677965">
						<True/>
						<Node score="11.523809523809524">
							<SimplePredicate field="double(x94)" operator="lessOrEqual" value="0.6619733572006226"/>
							<Node score="4.42">
								<SimplePredicate field="double(x39)" operator="lessOrEqual" value="0.25"/>
							</Node>
						</Node>
						<Node score="12.147058823529411">
							<SimplePredicate field="double(x94)" operator="lessOrEqual" value="0.6858969926834106"/>
						</Node>
					</Node>
				</TreeModel>
			</Segment>
			<Segment id="11">
				<True/>
				<TreeModel functionName="regression" missingValueStrategy="nullPrediction" noTrueChildStrategy="returnLastPrediction">
					<MiningSchema>
						<MiningField name="double(x94)"/>
						<MiningField name="double(x39)"/>
						<MiningField name="double(x86)"/>
					</MiningSchema>
					<Node score="10.082474226804123">
						<True/>
						<Node score="10.477272727272727">
							<SimplePredicate field="double(x39)" operator="lessOrEqual" value="0.25"/>
							<Node score="4.595744680851064">
								<SimplePredicate field="double(x94)" operator="lessOrEqual" value="0.6619733572006226"/>
							</Node>
						</Node>
						<Node score="12.26086956521739">
							<SimplePredicate field="double(x86)" operator="lessOrEqual" value="0.5"/>
						</Node>
					</Node>
				</TreeModel>
			</Segment>
			<Segment id="12">
				<True/>
				<TreeModel functionName="regression" missingValueStrategy="nullPrediction" noTrueChildStrategy="returnLastPrediction">
					<MiningSchema>
						<MiningField name="double(x94)"/>
						<MiningField name="double(x39)"/>
					</MiningSchema>
					<Node score="10.202898550724637">
						<True/>
						<Node score="11.481481481481481">
							<SimplePredicate field="double(x94)" operator="lessOrEqual" value="0.6619733572006226"/>
							<Node score="4.733333333333333">
								<SimplePredicate field="double(x39)" operator="lessOrEqual" value="0.25"/>
							</Node>
						</Node>
						<Node score="12.212765957446809">
							<SimplePredicate field="double(x94)" operator="lessOrEqual" value="0.6858969926834106"/>
						</Node>
					</Node>
				</TreeModel>
			</Segment>
			<Segment id="13">
				<True/>
				<TreeModel functionName="regression" missingValueStrategy="nullPrediction" noTrueChildStrategy="returnLastPrediction">
					<MiningSchema>
						<MiningField name="double(x94)"/>
						<MiningField name="double(x39)"/>
					</MiningSchema>
					<Node score="10.248275862068965">
						<True/>
						<Node score="12.25">
							<SimplePredicate field="double(x94)" operator="lessOrEqual" value="0.6619733572006226"/>
							<Node score="4.456521739130435">
								<SimplePredicate field="double(x39)" operator="lessOrEqual" value="0.25"/>
							</Node>
						</Node>
						<Node score="12.12">
							<SimplePredicate field="double(x94)" operator="lessOrEqual" value="0.6858969926834106"/>
						</Node>
					</Node>
				</TreeModel>
			</Segment>
			<Segment id="14">
				<True/>
				<TreeModel functionName="regression" missingValueStrategy="nullPrediction" noTrueChildStrategy="returnLastPrediction">
					<MiningSchema>
						<MiningField name="double(x94)"/>
						<MiningField name="double(x39)"/>
					</MiningSchema>
					<Node score="10.244444444444444">
						<True/>
						<Node score="11.666666666666666">
							<SimplePredicate field="double(x94)" operator="lessOrEqual" value="0.6619733572006226"/>
							<Node score="4.351351351351352">
								<SimplePredicate field="double(x39)" operator="lessOrEqual" value="0.25"/>
							</Node>
						</Node>
						<Node score="12.459016393442623">
							<SimplePredicate field="double(x94)" operator="lessOrEqual" value="0.6858969926834106"/>
						</Node>
					</Node>
				</TreeModel>
			</Segment>
			<Segment id="15">
				<True/>
				<TreeModel functionName="regression" missingValueStrategy="nullPrediction" noTrueChildStrategy="returnLastPrediction">
					<MiningSchema>
						<MiningField name="double(x94)"/>
						<MiningField name="double(x16)"/>
						<MiningField name="double(x86)"/>
					</MiningSchema>
					<Node score="10.212962962962964">
						<True/>
						<Node score="3.0">
							<SimplePredicate field="double(x86)" operator="lessOrEqual" value="0.5"/>
							<Node score="12.122641509433961">
								<SimplePredicate field="double(x16)" operator="lessOrEqual" value="0.48076922446489334"/>
							</Node>
						</Node>
						<Node score="6.410256410256411">
							<SimplePredicate field="double(x94)" operator="lessOrEqual" value="0.6619733572006226"/>
						</Node>
					</Node>
				</TreeModel>
			</Segment>
			<Segment id="16">
				<True/>
				<TreeModel functionName="regression" missingValueStrategy="nullPrediction" noTrueChildStrategy="returnLastPrediction">
					<MiningSchema>
						<MiningField name="double(x94)"/>
						<MiningField name="double(x16)"/>
						<MiningField name="double(x86)"/>
					</MiningSchema>
					<Node score="10.116504854368932">
						<True/>
						<Node score="3.0">
							<SimplePredicate field="double(x86)" operator="lessOrEqual" value="0.5"/>
							<Node score="12.272727272727273">
								<SimplePredicate field="double(x16)" operator="lessOrEqual" value="0.48076922446489334"/>
							</Node>
						</Node>
						<Node score="5.871794871794871">
							<SimplePredicate field="double(x94)" operator="lessOrEqual" value="0.6619733572006226"/>
						</Node>
					</Node>
				</TreeModel>
			</Segment>
			<Segment id="17">
				<True/>
				<TreeModel functionName="regression" missingValueStrategy="nullPrediction" noTrueChildStrategy="returnLastPrediction">
					<MiningSchema>
						<MiningField name="double(x94)"/>
					</MiningSchema>
					<Node score="10.34375">
						<True/>
						<Node score="5.444444444444445">
							<SimplePredicate field="double(x94)" operator="lessOrEqual" value="0.6619733572006226"/>
							<Node score="14.0">
								<SimplePredicate field="double(x94)" operator="lessOrEqual" value="0.6034143269062042"/>
							</Node>
						</Node>
						<Node score="12.036363636363637">
							<SimplePredicate field="double(x94)" operator="lessOrEqual" value="0.6858969926834106"/>
						</Node>
					</Node>
				</TreeModel>
			</Segment>
			<Segment id="18">
				<True/>
				<TreeModel functionName="regression" missingValueStrategy="nullPrediction" noTrueChildStrategy="returnLastPrediction">
					<MiningSchema>
						<MiningField name="double(x94)"/>
					</MiningSchema>
					<Node score="10.348148148148148">
						<True/>
						<Node score="5.773584905660377">
							<SimplePredicate field="double(x94)" operator="lessOrEqual" value="0.6619733572006226"/>
							<Node score="14.0">
								<SimplePredicate field="double(x94)" operator="lessOrEqual" value="0.6034143269062042"/>
							</Node>
						</Node>
						<Node score="12.24561403508772">
							<SimplePredicate field="double(x94)" operator="lessOrEqual" value="0.6858969926834106"/>
						</Node>
					</Node>
				</TreeModel>
			</Segment>
			<Segment id="19">
				<True/>
				<TreeModel functionName="regression" missingValueStrategy="nullPrediction" noTrueChildStrategy="returnLastPrediction">
					<MiningSchema>
						<MiningField name="double(x94)"/>
					</MiningSchema>
					<Node score="10.358333333333333">
						<True/>
						<Node score="5.462962962962963">
							<SimplePredicate field="double(x94)" operator="lessOrEqual" value="0.6619733572006226"/>
							<Node score="14.0">
								<SimplePredicate field="double(x94)" operator="lessOrEqual" value="0.6034143269062042"/>
							</Node>
						</Node>
						<Node score="12.028985507246377">
							<SimplePredicate field="double(x94)" operator="lessOrEqual" value="0.6858969926834106"/>
						</Node>
					</Node>
				</TreeModel>
			</Segment>
			<Segment id="20">
				<True/>
				<TreeModel functionName="regression" missingValueStrategy="nullPrediction" noTrueChildStrategy="returnLastPrediction">
					<MiningSchema>
						<MiningField name="double(x94)"/>
						<MiningField name="double(x72)"/>
						<MiningField name="double(x52)"/>
					</MiningSchema>
					<Node score="10.20388349514563">
						<True/>
						<Node score="11.074074074074074">
							<SimplePredicate field="double(x72)" operator="lessOrEqual" value="0.5"/>
							<Node score="14.0">
								<SimplePredicate field="double(x52)" operator="lessOrEqual" value="0.04838709533214569"/>
							</Node>
						</Node>
						<Node score="6.5813953488372094">
							<SimplePredicate field="double(x94)" operator="lessOrEqual" value="0.6619733572006226"/>
						</Node>
					</Node>
				</TreeModel>
			</Segment>
			<Segment id="21">
				<True/>
				<TreeModel functionName="regression" missingValueStrategy="nullPrediction" noTrueChildStrategy="returnLastPrediction">
					<MiningSchema>
						<MiningField name="double(x94)"/>
						<MiningField name="double(x16)"/>
						<MiningField name="double(x1)"/>
					</MiningSchema>
					<Node score="10.185567010309278">
						<True/>
						<Node score="10.916666666666666">
							<SimplePredicate field="double(x16)" operator="lessOrEqual" value="0.48076922446489334"/>
							<Node score="14.0">
								<SimplePredicate field="double(x1)" operator="lessOrEqual" value="0.04838709533214569"/>
							</Node>
						</Node>
						<Node score="5.333333333333333">
							<SimplePredicate field="double(x94)" operator="lessOrEqual" value="0.6619733572006226"/>
						</Node>
					</Node>
				</TreeModel>
			</Segment>
			<Segment id="22">
				<True/>
				<TreeModel functionName="regression" missingValueStrategy="nullPrediction" noTrueChildStrategy="returnLastPrediction">
					<MiningSchema>
						<MiningField name="double(x94)"/>
						<MiningField name="double(x39)"/>
						<MiningField name="double(x86)"/>
					</MiningSchema>
					<Node score="10.101449275362318">
						<True/>
						<Node score="12.0">
							<SimplePredicate field="double(x94)" operator="lessOrEqual" value="0.6619733572006226"/>
							<Node score="3.9411764705882355">
								<SimplePredicate field="double(x39)" operator="lessOrEqual" value="0.25"/>
							</Node>
						</Node>
						<Node score="11.571428571428571">
							<SimplePredicate field="double(x86)" operator="lessOrEqual" value="0.5"/>
						</Node>
					</Node>
				</TreeModel>
			</Segment>
			<Segment id="23">
				<True/>
				<TreeModel functionName="regression" missingValueStrategy="nullPrediction" noTrueChildStrategy="returnLastPrediction">
					<MiningSchema>
						<MiningField name="double(x94)"/>
						<MiningField name="double(x72)"/>
						<MiningField name="double(x39)"/>
					</MiningSchema>
					<Node score="10.108910891089108">
						<True/>
						<Node score="10.8">
							<SimplePredicate field="double(x39)" operator="lessOrEqual" value="0.25"/>
							<Node score="4.962962962962963">
								<SimplePredicate field="double(x94)" operator="lessOrEqual" value="0.6619733572006226"/>
							</Node>
						</Node>
						<Node score="12.516129032258064">
							<SimplePredicate field="double(x72)" operator="lessOrEqual" value="0.5"/>
						</Node>
					</Node>
				</TreeModel>
			</Segment>
			<Segment id="24">
				<True/>
				<TreeModel functionName="regression" missingValueStrategy="nullPrediction" noTrueChildStrategy="returnLastPrediction">
					<MiningSchema>
						<MiningField name="double(x72)"/>
						<MiningField name="double(x9)"/>
						<MiningField name="double(x73)"/>
					</MiningSchema>
					<Node score="9.56338028169014">
						<True/>
						<Node score="11.181818181818182">
							<SimplePredicate field="double(x72)" operator="lessOrEqual" value="0.5"/>
							<Node score="14.0">
								<SimplePredicate field="double(x9)" operator="lessOrEqual" value="0.04838709533214569"/>
							</Node>
						</Node>
						<Node score="3.0">
							<SimplePredicate field="double(x73)" operator="lessOrEqual" value="0.12903225421905518"/>
						</Node>
					</Node>
				</TreeModel>
			</Segment>
			<Segment id="25">
				<True/>
				<TreeModel functionName="regression" missingValueStrategy="nullPrediction" noTrueChildStrategy="returnLastPrediction">
					<MiningSchema>
						<MiningField name="double(x94)"/>
						<MiningField name="double(x39)"/>
						<MiningField name="double(x45)"/>
					</MiningSchema>
					<Node score="13.419354838709678">
						<True/>
						<Node score="10.660377358490566">
							<SimplePredicate field="double(x39)" operator="lessOrEqual" value="0.25"/>
							<Node score="4.357142857142857">
								<SimplePredicate field="double(x94)" operator="lessOrEqual" value="0.6619733572006226"/>
							</Node>
						</Node>
						<Node score="10.625954198473282">
							<SimplePredicate field="double(x45)" operator="lessOrEqual" value="0.75"/>
						</Node>
					</Node>
				</TreeModel>
			</Segment>
			<Segment id="26">
				<True/>
				<TreeModel functionName="regression" missingValueStrategy="nullPrediction" noTrueChildStrategy="returnLastPrediction">
					<MiningSchema>
						<MiningField name="double(x94)"/>
						<MiningField name="double(x39)"/>
					</MiningSchema>
					<Node score="10.335616438356164">
						<True/>
						<Node score="11.176470588235293">
							<SimplePredicate field="double(x94)" operator="lessOrEqual" value="0.6619733572006226"/>
							<Node score="4.3">
								<SimplePredicate field="double(x39)" operator="lessOrEqual" value="0.25"/>
							</Node>
						</Node>
						<Node score="12.0625">
							<SimplePredicate field="double(x94)" operator="lessOrEqual" value="0.6858969926834106"/>
						</Node>
					</Node>
				</TreeModel>
			</Segment>
			<Segment id="27">
				<True/>
				<TreeModel functionName="regression" missingValueStrategy="nullPrediction" noTrueChildStrategy="returnLastPrediction">
					<MiningSchema>
						<MiningField name="x37"/>
						<MiningField name="double(x16)"/>
					</MiningSchema>
					<LocalTransformations>
						<DerivedField name="double(x37)" optype="continuous" dataType="double">
							<FieldRef field="x37"/>
						</DerivedField>
					</LocalTransformations>
					<Node score="9.27972027972028">
						<True/>
						<Node score="3.0">
							<SimplePredicate field="double(x37)" operator="lessOrEqual" value="-1.0"/>
						</Node>
						<Node score="11.63551401869159">
							<SimplePredicate field="double(x16)" operator="lessOrEqual" value="0.48076922446489334"/>
						</Node>
					</Node>
				</TreeModel>
			</Segment>
			<Segment id="28">
				<True/>
				<TreeModel functionName="regression" missingValueStrategy="nullPrediction" noTrueChildStrategy="returnLastPrediction">
					<MiningSchema>
						<MiningField name="double(x94)"/>
						<MiningField name="double(x73)"/>
					</MiningSchema>
					<Node score="10.32824427480916">
						<True/>
						<Node score="9.675">
							<SimplePredicate field="double(x94)" operator="lessOrEqual" value="0.6596990525722504"/>
							<Node score="3.0">
								<SimplePredicate field="double(x73)" operator="lessOrEqual" value="0.27419354021549225"/>
							</Node>
						</Node>
						<Node score="12.15625">
							<SimplePredicate field="double(x94)" operator="lessOrEqual" value="0.6858969926834106"/>
						</Node>
					</Node>
				</TreeModel>
			</Segment>
			<Segment id="29">
				<True/>
				<TreeModel functionName="regression" missingValueStrategy="nullPrediction" noTrueChildStrategy="returnLastPrediction">
					<MiningSchema>
						<MiningField name="double(x94)"/>
						<MiningField name="double(x39)"/>
						<MiningField name="double(x104)"/>
					</MiningSchema>
					<Node score="10.636363636363637">
						<True/>
						<Node score="10.745098039215685">
							<SimplePredicate field="double(x39)" operator="lessOrEqual" value="0.25"/>
							<Node score="5.0285714285714285">
								<SimplePredicate field="double(x94)" operator="lessOrEqual" value="0.6619733572006226"/>
							</Node>
						</Node>
						<Node score="13.714285714285714">
							<SimplePredicate field="double(x104)" operator="lessOrEqual" value="0.04838709533214569"/>
						</Node>
					</Node>
				</TreeModel>
			</Segment>
			<Segment id="30">
				<True/>
				<TreeModel functionName="regression" missingValueStrategy="nullPrediction" noTrueChildStrategy="returnLastPrediction">
					<MiningSchema>
						<MiningField name="double(x94)"/>
					</MiningSchema>
					<Node score="10.297709923664122">
						<True/>
						<Node score="3.0">
							<SimplePredicate field="double(x94)" operator="lessOrEqual" value="0.6619733572006226"/>
							<Node score="9.902439024390244">
								<SimplePredicate field="double(x94)" operator="lessOrEqual" value="0.6409896016120911"/>
							</Node>
						</Node>
						<Node score="12.210526315789474">
							<SimplePredicate field="double(x94)" operator="lessOrEqual" value="0.6858969926834106"/>
						</Node>
					</Node>
				</TreeModel>
			</Segment>
			<Segment id="31">
				<True/>
				<TreeModel functionName="regression" missingValueStrategy="nullPrediction" noTrueChildStrategy="returnLastPrediction">
					<MiningSchema>
						<MiningField name="double(x94)"/>
						<MiningField name="double(x16)"/>
						<MiningField name="double(x9)"/>
					</MiningSchema>
					<Node score="10.26">
						<True/>
						<Node score="10.931818181818182">
							<SimplePredicate field="double(x16)" operator="lessOrEqual" value="0.48076922446489334"/>
							<Node score="14.0">
								<SimplePredicate field="double(x9)" operator="lessOrEqual" value="0.04838709533214569"/>
							</Node>
						</Node>
						<Node score="5.7317073170731705">
							<SimplePredicate field="double(x94)" operator="lessOrEqual" value="0.6619733572006226"/>
						</Node>
					</Node>
				</TreeModel>
			</Segment>
			<Segment id="32">
				<True/>
				<TreeModel functionName="regression" missingValueStrategy="nullPrediction" noTrueChildStrategy="returnLastPrediction">
					<MiningSchema>
						<MiningField name="double(x94)"/>
						<MiningField name="double(x16)"/>
						<MiningField name="double(x5)"/>
					</MiningSchema>
					<Node score="10.172043010752688">
						<True/>
						<Node score="10.908045977011493">
							<SimplePredicate field="double(x16)" operator="lessOrEqual" value="0.48076922446489334"/>
							<Node score="14.0">
								<SimplePredicate field="double(x5)" operator="lessOrEqual" value="0.04838709533214569"/>
							</Node>
						</Node>
						<Node score="5.488888888888889">
							<SimplePredicate field="double(x94)" operator="lessOrEqual" value="0.6619733572006226"/>
						</Node>
					</Node>
				</TreeModel>
			</Segment>
			<Segment id="33">
				<True/>
				<TreeModel functionName="regression" missingValueStrategy="nullPrediction" noTrueChildStrategy="returnLastPrediction">
					<MiningSchema>
						<MiningField name="double(x94)"/>
						<MiningField name="double(x39)"/>
					</MiningSchema>
					<Node score="10.266187050359711">
						<True/>
						<Node score="12.0">
							<SimplePredicate field="double(x94)" operator="lessOrEqual" value="0.6619733572006226"/>
							<Node score="4.621621621621622">
								<SimplePredicate field="double(x39)" operator="lessOrEqual" value="0.25"/>
							</Node>
						</Node>
						<Node score="12.035087719298245">
							<SimplePredicate field="double(x94)" operator="lessOrEqual" value="0.6858969926834106"/>
						</Node>
					</Node>
				</TreeModel>
			</Segment>
			<Segment id="34">
				<True/>
				<TreeModel functionName="regression" missingValueStrategy="nullPrediction" noTrueChildStrategy="returnLastPrediction">
					<MiningSchema>
						<MiningField name="double(x94)"/>
						<MiningField name="double(x39)"/>
					</MiningSchema>
					<Node score="10.253968253968255">
						<True/>
						<Node score="11.818181818181818">
							<SimplePredicate field="double(x94)" operator="lessOrEqual" value="0.6619733572006226"/>
							<Node score="4.2926829268292686">
								<SimplePredicate field="double(x39)" operator="lessOrEqual" value="0.25"/>
							</Node>
						</Node>
						<Node score="12.029411764705882">
							<SimplePredicate field="double(x94)" operator="lessOrEqual" value="0.6858969926834106"/>
						</Node>
					</Node>
				</TreeModel>
			</Segment>
			<Segment id="35">
				<True/>
				<TreeModel functionName="regression" missingValueStrategy="nullPrediction" noTrueChildStrategy="returnLastPrediction">
					<MiningSchema>
						<MiningField name="double(x94)"/>
					</MiningSchema>
					<Node score="10.330985915492958">
						<True/>
						<Node score="4.96">
							<SimplePredicate field="double(x94)" operator="lessOrEqual" value="0.6619733572006226"/>
							<Node score="14.0">
								<SimplePredicate field="double(x94)" operator="lessOrEqual" value="0.6034143269062042"/>
							</Node>
						</Node>
						<Node score="12.181818181818182">
							<SimplePredicate field="double(x94)" operator="lessOrEqual" value="0.6858969926834106"/>
						</Node>
					</Node>
				</TreeModel>
			</Segment>
			<Segment id="36">
				<True/>
				<TreeModel functionName="regression" missingValueStrategy="nullPrediction" noTrueChildStrategy="returnLastPrediction">
					<MiningSchema>
						<MiningField name="double(x94)"/>
					</MiningSchema>
					<Node score="10.26923076923077">
						<True/>
						<Node score="4.065217391304348">
							<SimplePredicate field="double(x94)" operator="lessOrEqual" value="0.6619733572006226"/>
							<Node score="14.0">
								<SimplePredicate field="double(x94)" operator="lessOrEqual" value="0.6034143269062042"/>
							</Node>
						</Node>
						<Node score="12.029850746268657">
							<SimplePredicate field="double(x94)" operator="lessOrEqual" value="0.6858969926834106"/>
						</Node>
					</Node>
				</TreeModel>
			</Segment>
			<Segment id="37">
				<True/>
				<TreeModel functionName="regression" missingValueStrategy="nullPrediction" noTrueChildStrategy="returnLastPrediction">
					<MiningSchema>
						<MiningField name="double(x94)"/>
						<MiningField name="double(x39)"/>
						<MiningField name="double(x86)"/>
					</MiningSchema>
					<Node score="10.083333333333334">
						<True/>
						<Node score="11.076923076923077">
							<SimplePredicate field="double(x94)" operator="lessOrEqual" value="0.6619733572006226"/>
							<Node score="4.9523809523809526">
								<SimplePredicate field="double(x39)" operator="lessOrEqual" value="0.25"/>
							</Node>
						</Node>
						<Node score="11.927536231884059">
							<SimplePredicate field="double(x86)" operator="lessOrEqual" value="0.5"/>
						</Node>
					</Node>
				</TreeModel>
			</Segment>
			<Segment id="38">
				<True/>
				<TreeModel functionName="regression" missingValueStrategy="nullPrediction" noTrueChildStrategy="returnLastPrediction">
					<MiningSchema>
						<MiningField name="double(x94)"/>
						<MiningField name="double(x39)"/>
					</MiningSchema>
					<Node score="10.232394366197184">
						<True/>
						<Node score="11.0">
							<SimplePredicate field="double(x94)" operator="lessOrEqual" value="0.6619733572006226"/>
							<Node score="5.035714285714286">
								<SimplePredicate field="double(x39)" operator="lessOrEqual" value="0.25"/>
							</Node>
						</Node>
						<Node score="12.285714285714286">
							<SimplePredicate field="double(x94)" operator="lessOrEqual" value="0.6858969926834106"/>
						</Node>
					</Node>
				</TreeModel>
			</Segment>
			<Segment id="39">
				<True/>
				<TreeModel functionName="regression" missingValueStrategy="nullPrediction" noTrueChildStrategy="returnLastPrediction">
					<MiningSchema>
						<MiningField name="double(x94)"/>
						<MiningField name="double(x39)"/>
					</MiningSchema>
					<Node score="10.283783783783784">
						<True/>
						<Node score="11.538461538461538">
							<SimplePredicate field="double(x94)" operator="lessOrEqual" value="0.6619733572006226"/>
							<Node score="4.166666666666667">
								<SimplePredicate field="double(x39)" operator="lessOrEqual" value="0.25"/>
							</Node>
						</Node>
						<Node score="12.066666666666666">
							<SimplePredicate field="double(x94)" operator="lessOrEqual" value="0.6858969926834106"/>
						</Node>
					</Node>
				</TreeModel>
			</Segment>
			<Segment id="40">
				<True/>
				<TreeModel functionName="regression" missingValueStrategy="nullPrediction" noTrueChildStrategy="returnLastPrediction">
					<MiningSchema>
						<MiningField name="double(x94)"/>
					</MiningSchema>
					<Node score="10.26771653543307">
						<True/>
						<Node score="3.0">
							<SimplePredicate field="double(x94)" operator="lessOrEqual" value="0.6619733572006226"/>
							<Node score="9.720930232558139">
								<SimplePredicate field="double(x94)" operator="lessOrEqual" value="0.6409896016120911"/>
							</Node>
						</Node>
						<Node score="12.181818181818182">
							<SimplePredicate field="double(x94)" operator="lessOrEqual" value="0.6858969926834106"/>
						</Node>
					</Node>
				</TreeModel>
			</Segment>
			<Segment id="41">
				<True/>
				<TreeModel functionName="regression" missingValueStrategy="nullPrediction" noTrueChildStrategy="returnLastPrediction">
					<MiningSchema>
						<MiningField name="double(x94)"/>
					</MiningSchema>
					<Node score="10.359154929577464">
						<True/>
						<Node score="5.386363636363637">
							<SimplePredicate field="double(x94)" operator="lessOrEqual" value="0.6619733572006226"/>
							<Node score="14.0">
								<SimplePredicate field="double(x94)" operator="lessOrEqual" value="0.6034143269062042"/>
							</Node>
						</Node>
						<Node score="12.241379310344827">
							<SimplePredicate field="double(x94)" operator="lessOrEqual" value="0.6858969926834106"/>
						</Node>
					</Node>
				</TreeModel>
			</Segment>
			<Segment id="42">
				<True/>
				<TreeModel functionName="regression" missingValueStrategy="nullPrediction" noTrueChildStrategy="returnLastPrediction">
					<MiningSchema>
						<MiningField name="double(x94)"/>
						<MiningField name="double(x39)"/>
						<MiningField name="double(x1)"/>
					</MiningSchema>
					<Node score="10.690647482014388">
						<True/>
						<Node score="10.622222222222222">
							<SimplePredicate field="double(x39)" operator="lessOrEqual" value="0.25"/>
							<Node score="5.277777777777778">
								<SimplePredicate field="double(x94)" operator="lessOrEqual" value="0.6596990525722504"/>
							</Node>
						</Node>
						<Node score="13.567567567567568">
							<SimplePredicate field="double(x1)" operator="lessOrEqual" value="0.04838709533214569"/>
						</Node>
					</Node>
				</TreeModel>
			</Segment>
			<Segment id="43">
				<True/>
				<TreeModel functionName="regression" missingValueStrategy="nullPrediction" noTrueChildStrategy="returnLastPrediction">
					<MiningSchema>
						<MiningField name="double(x94)"/>
						<MiningField name="double(x39)"/>
						<MiningField name="double(x86)"/>
					</MiningSchema>
					<Node score="10.061855670103093">
						<True/>
						<Node score="10.595744680851064">
							<SimplePredicate field="double(x39)" operator="lessOrEqual" value="0.25"/>
							<Node score="4.634146341463414">
								<SimplePredicate field="double(x94)" operator="lessOrEqual" value="0.6596990525722504"/>
							</Node>
						</Node>
						<Node score="12.25">
							<SimplePredicate field="double(x86)" operator="lessOrEqual" value="0.5"/>
						</Node>
					</Node>
				</TreeModel>
			</Segment>
			<Segment id="44">
				<True/>
				<TreeModel functionName="regression" missingValueStrategy="nullPrediction" noTrueChildStrategy="returnLastPrediction">
					<MiningSchema>
						<MiningField name="double(x94)"/>
					</MiningSchema>
					<Node score="10.276119402985074">
						<True/>
						<Node score="5.680851063829787">
							<SimplePredicate field="double(x94)" operator="lessOrEqual" value="0.6619733572006226"/>
							<Node score="14.0">
								<SimplePredicate field="double(x94)" operator="lessOrEqual" value="0.6034143269062042"/>
							</Node>
						</Node>
						<Node score="12.06060606060606">
							<SimplePredicate field="double(x94)" operator="lessOrEqual" value="0.6858969926834106"/>
						</Node>
					</Node>
				</TreeModel>
			</Segment>
			<Segment id="45">
				<True/>
				<TreeModel functionName="regression" missingValueStrategy="nullPrediction" noTrueChildStrategy="returnLastPrediction">
					<MiningSchema>
						<MiningField name="double(x94)"/>
						<MiningField name="double(x72)"/>
					</MiningSchema>
					<Node score="10.08695652173913">
						<True/>
						<Node score="5.851851851851852">
							<SimplePredicate field="double(x94)" operator="lessOrEqual" value="0.6619733572006226"/>
							<Node score="14.0">
								<SimplePredicate field="double(x94)" operator="lessOrEqual" value="0.6034143269062042"/>
							</Node>
						</Node>
						<Node score="11.866666666666667">
							<SimplePredicate field="double(x72)" operator="lessOrEqual" value="0.5"/>
						</Node>
					</Node>
				</TreeModel>
			</Segment>
			<Segment id="46">
				<True/>
				<TreeModel functionName="regression" missingValueStrategy="nullPrediction" noTrueChildStrategy="returnLastPrediction">
					<MiningSchema>
						<MiningField name="double(x94)"/>
						<MiningField name="double(x16)"/>
						<MiningField name="double(x52)"/>
					</MiningSchema>
					<Node score="10.3">
						<True/>
						<Node score="10.91358024691358">
							<SimplePredicate field="double(x16)" operator="lessOrEqual" value="0.48076922446489334"/>
							<Node score="14.0">
								<SimplePredicate field="double(x52)" operator="lessOrEqual" value="0.04838709533214569"/>
							</Node>
						</Node>
						<Node score="6.5777777777777775">
							<SimplePredicate field="double(x94)" operator="lessOrEqual" value="0.6619733572006226"/>
						</Node>
					</Node>
				</TreeModel>
			</Segment>
			<Segment id="47">
				<True/>
				<TreeModel functionName="regression" missingValueStrategy="nullPrediction" noTrueChildStrategy="returnLastPrediction">
					<MiningSchema>
						<MiningField name="double(x94)"/>
						<MiningField name="double(x39)"/>
						<MiningField name="double(x45)"/>
					</MiningSchema>
					<Node score="13.225806451612904">
						<True/>
						<Node score="10.76086956521739">
							<SimplePredicate field="double(x39)" operator="lessOrEqual" value="0.25"/>
							<Node score="4.558139534883721">
								<SimplePredicate field="double(x94)" operator="lessOrEqual" value="0.6619733572006226"/>
							</Node>
						</Node>
						<Node score="10.554744525547445">
							<SimplePredicate field="double(x45)" operator="lessOrEqual" value="0.75"/>
						</Node>
					</Node>
				</TreeModel>
			</Segment>
			<Segment id="48">
				<True/>
				<TreeModel functionName="regression" missingValueStrategy="nullPrediction" noTrueChildStrategy="returnLastPrediction">
					<MiningSchema>
						<MiningField name="double(x94)"/>
						<MiningField name="double(x39)"/>
						<MiningField name="double(x86)"/>
					</MiningSchema>
					<Node score="10.1">
						<True/>
						<Node score="11.571428571428571">
							<SimplePredicate field="double(x94)" operator="lessOrEqual" value="0.6619733572006226"/>
							<Node score="4.875">
								<SimplePredicate field="double(x39)" operator="lessOrEqual" value="0.25"/>
							</Node>
						</Node>
						<Node score="11.734177215189874">
							<SimplePredicate field="double(x86)" operator="lessOrEqual" value="0.5"/>
						</Node>
					</Node>
				</TreeModel>
			</Segment>
			<Segment id="49">
				<True/>
				<TreeModel functionName="regression" missingValueStrategy="nullPrediction" noTrueChildStrategy="returnLastPrediction">
					<MiningSchema>
						<MiningField name="double(x94)"/>
						<MiningField name="double(x39)"/>
					</MiningSchema>
					<Node score="10.211267605633802">
						<True/>
						<Node score="10.96">
							<SimplePredicate field="double(x94)" operator="lessOrEqual" value="0.6619733572006226"/>
							<Node score="3.7333333333333334">
								<SimplePredicate field="double(x39)" operator="lessOrEqual" value="0.25"/>
							</Node>
						</Node>
						<Node score="12.166666666666666">
							<SimplePredicate field="double(x94)" operator="lessOrEqual" value="0.6858969926834106"/>
						</Node>
					</Node>
				</TreeModel>
			</Segment>
			<Segment id="50">
				<True/>
				<TreeModel functionName="regression" missingValueStrategy="nullPrediction" noTrueChildStrategy="returnLastPrediction">
					<MiningSchema>
						<MiningField name="double(x94)"/>
						<MiningField name="double(x72)"/>
						<MiningField name="double(x39)"/>
					</MiningSchema>
					<Node score="10.2">
						<True/>
						<Node score="11.666666666666666">
							<SimplePredicate field="double(x94)" operator="lessOrEqual" value="0.6596990525722504"/>
							<Node score="4.868421052631579">
								<SimplePredicate field="double(x39)" operator="lessOrEqual" value="0.25"/>
							</Node>
						</Node>
						<Node score="11.744444444444444">
							<SimplePredicate field="double(x72)" operator="lessOrEqual" value="0.5"/>
						</Node>
					</Node>
				</TreeModel>
			</Segment>
			<Segment id="51">
				<True/>
				<TreeModel functionName="regression" missingValueStrategy="nullPrediction" noTrueChildStrategy="returnLastPrediction">
					<MiningSchema>
						<MiningField name="double(x94)"/>
						<MiningField name="double(x39)"/>
					</MiningSchema>
					<Node score="10.308270676691729">
						<True/>
						<Node score="11.91304347826087">
							<SimplePredicate field="double(x94)" operator="lessOrEqual" value="0.6619733572006226"/>
							<Node score="4.3125">
								<SimplePredicate field="double(x39)" operator="lessOrEqual" value="0.25"/>
							</Node>
						</Node>
						<Node score="11.884057971014492">
							<SimplePredicate field="double(x94)" operator="lessOrEqual" value="0.6858969926834106"/>
						</Node>
					</Node>
				</TreeModel>
			</Segment>
			<Segment id="52">
				<True/>
				<TreeModel functionName="regression" missingValueStrategy="nullPrediction" noTrueChildStrategy="returnLastPrediction">
					<MiningSchema>
						<MiningField name="double(x94)"/>
						<MiningField name="double(x39)"/>
					</MiningSchema>
					<Node score="10.297709923664122">
						<True/>
						<Node score="11.44">
							<SimplePredicate field="double(x94)" operator="lessOrEqual" value="0.6619733572006226"/>
							<Node score="5.133333333333334">
								<SimplePredicate field="double(x39)" operator="lessOrEqual" value="0.25"/>
							</Node>
						</Node>
						<Node score="11.943661971830986">
							<SimplePredicate field="double(x94)" operator="lessOrEqual" value="0.6858969926834106"/>
						</Node>
					</Node>
				</TreeModel>
			</Segment>
			<Segment id="53">
				<True/>
				<TreeModel functionName="regression" missingValueStrategy="nullPrediction" noTrueChildStrategy="returnLastPrediction">
					<MiningSchema>
						<MiningField name="double(x94)"/>
						<MiningField name="double(x39)"/>
					</MiningSchema>
					<Node score="10.277372262773723">
						<True/>
						<Node score="11.846153846153847">
							<SimplePredicate field="double(x94)" operator="lessOrEqual" value="0.6619733572006226"/>
							<Node score="3.8780487804878048">
								<SimplePredicate field="double(x39)" operator="lessOrEqual" value="0.25"/>
							</Node>
						</Node>
						<Node score="12.415094339622641">
							<SimplePredicate field="double(x94)" operator="lessOrEqual" value="0.6858969926834106"/>
						</Node>
					</Node>
				</TreeModel>
			</Segment>
			<Segment id="54">
				<True/>
				<TreeModel functionName="regression" missingValueStrategy="nullPrediction" noTrueChildStrategy="returnLastPrediction">
					<MiningSchema>
						<MiningField name="double(x94)"/>
					</MiningSchema>
					<Node score="10.21774193548387">
						<True/>
						<Node score="5.545454545454546">
							<SimplePredicate field="double(x94)" operator="lessOrEqual" value="0.6619733572006226"/>
							<Node score="14.0">
								<SimplePredicate field="double(x94)" operator="lessOrEqual" value="0.6034143269062042"/>
							</Node>
						</Node>
						<Node score="12.16">
							<SimplePredicate field="double(x94)" operator="lessOrEqual" value="0.6858969926834106"/>
						</Node>
					</Node>
				</TreeModel>
			</Segment>
			<Segment id="55">
				<True/>
				<TreeModel functionName="regression" missingValueStrategy="nullPrediction" noTrueChildStrategy="returnLastPrediction">
					<MiningSchema>
						<MiningField name="double(x94)"/>
						<MiningField name="double(x39)"/>
					</MiningSchema>
					<Node score="10.26388888888889">
						<True/>
						<Node score="11.6">
							<SimplePredicate field="double(x94)" operator="lessOrEqual" value="0.6619733572006226"/>
							<Node score="4.382352941176471">
								<SimplePredicate field="double(x39)" operator="lessOrEqual" value="0.25"/>
							</Node>
						</Node>
						<Node score="12.074074074074074">
							<SimplePredicate field="double(x94)" operator="lessOrEqual" value="0.6858969926834106"/>
						</Node>
					</Node>
				</TreeModel>
			</Segment>
			<Segment id="56">
				<True/>
				<TreeModel functionName="regression" missingValueStrategy="nullPrediction" noTrueChildStrategy="returnLastPrediction">
					<MiningSchema>
						<MiningField name="double(x94)"/>
						<MiningField name="double(x39)"/>
					</MiningSchema>
					<Node score="10.203125">
						<True/>
						<Node score="11.517241379310345">
							<SimplePredicate field="double(x94)" operator="lessOrEqual" value="0.6619733572006226"/>
							<Node score="4.488888888888889">
								<SimplePredicate field="double(x39)" operator="lessOrEqual" value="0.25"/>
							</Node>
						</Node>
						<Node score="12.145454545454545">
							<SimplePredicate field="double(x94)" operator="lessOrEqual" value="0.6858969926834106"/>
						</Node>
					</Node>
				</TreeModel>
			</Segment>
			<Segment id="57">
				<True/>
				<TreeModel functionName="regression" missingValueStrategy="nullPrediction" noTrueChildStrategy="returnLastPrediction">
					<MiningSchema>
						<MiningField name="double(x94)"/>
						<MiningField name="double(x72)"/>
						<MiningField name="double(x39)"/>
					</MiningSchema>
					<Node score="10.076086956521738">
						<True/>
						<Node score="10.72340425531915">
							<SimplePredicate field="double(x39)" operator="lessOrEqual" value="0.25"/>
							<Node score="3.875">
								<SimplePredicate field="double(x94)" operator="lessOrEqual" value="0.6619733572006226"/>
							</Node>
						</Node>
						<Node score="12.290697674418604">
							<SimplePredicate field="double(x72)" operator="lessOrEqual" value="0.5"/>
						</Node>
					</Node>
				</TreeModel>
			</Segment>
			<Segment id="58">
				<True/>
				<TreeModel functionName="regression" missingValueStrategy="nullPrediction" noTrueChildStrategy="returnLastPrediction">
					<MiningSchema>
						<MiningField name="x85"/>
						<MiningField name="double(x94)"/>
						<MiningField name="double(x16)"/>
					</MiningSchema>
					<LocalTransformations>
						<DerivedField name="double(x85)" optype="continuous" dataType="double">
							<FieldRef field="x85"/>
						</DerivedField>
					</LocalTransformations>
					<Node score="10.173913043478262">
						<True/>
						<Node score="11.920353982300885">
							<SimplePredicate field="double(x16)" operator="lessOrEqual" value="0.48076922446489334"/>
							<Node score="3.0">
								<SimplePredicate field="double(x85)" operator="lessOrEqual" value="-1.5"/>
							</Node>
						</Node>
						<Node score="6.208333333333333">
							<SimplePredicate field="double(x94)" operator="lessOrEqual" value="0.6619733572006226"/>
						</Node>
					</Node>
				</TreeModel>
			</Segment>
			<Segment id="59">
				<True/>
				<TreeModel functionName="regression" missingValueStrategy="nullPrediction" noTrueChildStrategy="returnLastPrediction">
					<MiningSchema>
						<MiningField name="double(x94)"/>
						<MiningField name="double(x16)"/>
						<MiningField name="double(x86)"/>
					</MiningSchema>
					<Node score="10.078260869565218">
						<True/>
						<Node score="3.0">
							<SimplePredicate field="double(x86)" operator="lessOrEqual" value="0.5"/>
							<Node score="12.30232558139535">
								<SimplePredicate field="double(x16)" operator="lessOrEqual" value="0.48076922446489334"/>
							</Node>
						</Node>
						<Node score="6.30188679245283">
							<SimplePredicate field="double(x94)" operator="lessOrEqual" value="0.6619733572006226"/>
						</Node>
					</Node>
				</TreeModel>
			</Segment>
			<Segment id="60">
				<True/>
				<TreeModel functionName="regression" missingValueStrategy="nullPrediction" noTrueChildStrategy="returnLastPrediction">
					<MiningSchema>
						<MiningField name="double(x94)"/>
						<MiningField name="double(x86)"/>
						<MiningField name="double(x73)"/>
					</MiningSchema>
					<Node score="10.154471544715447">
						<True/>
						<Node score="9.536585365853659">
							<SimplePredicate field="double(x94)" operator="lessOrEqual" value="0.6619733572006226"/>
							<Node score="3.0">
								<SimplePredicate field="double(x73)" operator="lessOrEqual" value="0.27419354021549225"/>
							</Node>
						</Node>
						<Node score="11.56338028169014">
							<SimplePredicate field="double(x86)" operator="lessOrEqual" value="0.5"/>
						</Node>
					</Node>
				</TreeModel>
			</Segment>
			<Segment id="61">
				<True/>
				<TreeModel functionName="regression" missingValueStrategy="nullPrediction" noTrueChildStrategy="returnLastPrediction">
					<MiningSchema>
						<MiningField name="double(x94)"/>
						<MiningField name="double(x72)"/>
						<MiningField name="double(x39)"/>
					</MiningSchema>
					<Node score="10.098765432098766">
						<True/>
						<Node score="10.840909090909092">
							<SimplePredicate field="double(x39)" operator="lessOrEqual" value="0.25"/>
							<Node score="4.065217391304348">
								<SimplePredicate field="double(x94)" operator="lessOrEqual" value="0.6619733572006226"/>
							</Node>
						</Node>
						<Node score="12.116279069767442">
							<SimplePredicate field="double(x72)" operator="lessOrEqual" value="0.5"/>
						</Node>
					</Node>
				</TreeModel>
			</Segment>
			<Segment id="62">
				<True/>
				<TreeModel functionName="regression" missingValueStrategy="nullPrediction" noTrueChildStrategy="returnLastPrediction">
					<MiningSchema>
						<MiningField name="double(x94)"/>
						<MiningField name="double(x39)"/>
					</MiningSchema>
					<Node score="10.267175572519085">
						<True/>
						<Node score="10.869565217391305">
							<SimplePredicate field="double(x94)" operator="lessOrEqual" value="0.6619733572006226"/>
							<Node score="4.666666666666667">
								<SimplePredicate field="double(x39)" operator="lessOrEqual" value="0.25"/>
							</Node>
						</Node>
						<Node score="12.1875">
							<SimplePredicate field="double(x94)" operator="lessOrEqual" value="0.6858969926834106"/>
						</Node>
					</Node>
				</TreeModel>
			</Segment>
			<Segment id="63">
				<True/>
				<TreeModel functionName="regression" missingValueStrategy="nullPrediction" noTrueChildStrategy="returnLastPrediction">
					<MiningSchema>
						<MiningField name="double(x94)"/>
						<MiningField name="double(x16)"/>
						<MiningField name="double(x50)"/>
					</MiningSchema>
					<Node score="9.465277777777779">
						<True/>
						<Node score="3.0">
							<SimplePredicate field="double(x16)" operator="lessOrEqual" value="0.48076922446489334"/>
							<Node score="12.010309278350515">
								<SimplePredicate field="double(x50)" operator="lessOrEqual" value="0.5"/>
							</Node>
						</Node>
						<Node score="3.0">
							<SimplePredicate field="double(x94)" operator="lessOrEqual" value="0.6186458170413971"/>
						</Node>
					</Node>
				</TreeModel>
			</Segment>
			<Segment id="64">
				<True/>
				<TreeModel functionName="regression" missingValueStrategy="nullPrediction" noTrueChildStrategy="returnLastPrediction">
					<MiningSchema>
						<MiningField name="double(x94)"/>
					</MiningSchema>
					<Node score="10.280701754385966">
						<True/>
						<Node score="4.423728813559322">
							<SimplePredicate field="double(x94)" operator="lessOrEqual" value="0.6619733572006226"/>
							<Node score="14.0">
								<SimplePredicate field="double(x94)" operator="lessOrEqual" value="0.6034143269062042"/>
							</Node>
						</Node>
						<Node score="12.164383561643836">
							<SimplePredicate field="double(x94)" operator="lessOrEqual" value="0.6858969926834106"/>
						</Node>
					</Node>
				</TreeModel>
			</Segment>
			<Segment id="65">
				<True/>
				<TreeModel functionName="regression" missingValueStrategy="nullPrediction" noTrueChildStrategy="returnLastPrediction">
					<MiningSchema>
						<MiningField name="double(x94)"/>
						<MiningField name="double(x16)"/>
						<MiningField name="double(x7)"/>
					</MiningSchema>
					<Node score="10.16326530612245">
						<True/>
						<Node score="11.925">
							<SimplePredicate field="double(x16)" operator="lessOrEqual" value="0.48076922446489334"/>
							<Node score="3.0">
								<SimplePredicate field="double(x7)" operator="lessOrEqual" value="-3.2200000286102295"/>
							</Node>
						</Node>
						<Node score="5.8">
							<SimplePredicate field="double(x94)" operator="lessOrEqual" value="0.6619733572006226"/>
						</Node>
					</Node>
				</TreeModel>
			</Segment>
			<Segment id="66">
				<True/>
				<TreeModel functionName="regression" missingValueStrategy="nullPrediction" noTrueChildStrategy="returnLastPrediction">
					<MiningSchema>
						<MiningField name="double(x94)"/>
						<MiningField name="double(x16)"/>
						<MiningField name="double(x104)"/>
					</MiningSchema>
					<Node score="10.138613861386139">
						<True/>
						<Node score="11.112676056338028">
							<SimplePredicate field="double(x16)" operator="lessOrEqual" value="0.48076922446489334"/>
							<Node score="14.0">
								<SimplePredicate field="double(x104)" operator="lessOrEqual" value="0.04838709533214569"/>
							</Node>
						</Node>
						<Node score="5.5576923076923075">
							<SimplePredicate field="double(x94)" operator="lessOrEqual" value="0.6619733572006226"/>
						</Node>
					</Node>
				</TreeModel>
			</Segment>
			<Segment id="67">
				<True/>
				<TreeModel functionName="regression" missingValueStrategy="nullPrediction" noTrueChildStrategy="returnLastPrediction">
					<MiningSchema>
						<MiningField name="double(x94)"/>
						<MiningField name="double(x16)"/>
						<MiningField name="double(x52)"/>
					</MiningSchema>
					<Node score="10.23157894736842">
						<True/>
						<Node score="11.139240506329115">
							<SimplePredicate field="double(x16)" operator="lessOrEqual" value="0.48076922446489334"/>
							<Node score="14.0">
								<SimplePredicate field="double(x52)" operator="lessOrEqual" value="0.04838709533214569"/>
							</Node>
						</Node>
						<Node score="5.041666666666667">
							<SimplePredicate field="double(x94)" operator="lessOrEqual" value="0.6619733572006226"/>
						</Node>
					</Node>
				</TreeModel>
			</Segment>
			<Segment id="68">
				<True/>
				<TreeModel functionName="regression" missingValueStrategy="nullPrediction" noTrueChildStrategy="returnLastPrediction">
					<MiningSchema>
						<MiningField name="double(x94)"/>
					</MiningSchema>
					<Node score="10.223021582733812">
						<True/>
						<Node score="5.418181818181818">
							<SimplePredicate field="double(x94)" operator="lessOrEqual" value="0.6619733572006226"/>
							<Node score="14.0">
								<SimplePredicate field="double(x94)" operator="lessOrEqual" value="0.6034143269062042"/>
							</Node>
						</Node>
						<Node score="12.204081632653061">
							<SimplePredicate field="double(x94)" operator="lessOrEqual" value="0.6858969926834106"/>
						</Node>
					</Node>
				</TreeModel>
			</Segment>
			<Segment id="69">
				<True/>
				<TreeModel functionName="regression" missingValueStrategy="nullPrediction" noTrueChildStrategy="returnLastPrediction">
					<MiningSchema>
						<MiningField name="double(x94)"/>
						<MiningField name="double(x39)"/>
						<MiningField name="double(x86)"/>
					</MiningSchema>
					<Node score="10.137931034482758">
						<True/>
						<Node score="10.5">
							<SimplePredicate field="double(x39)" operator="lessOrEqual" value="0.25"/>
							<Node score="5.403846153846154">
								<SimplePredicate field="double(x94)" operator="lessOrEqual" value="0.6619733572006226"/>
							</Node>
						</Node>
						<Node score="12.43939393939394">
							<SimplePredicate field="double(x86)" operator="lessOrEqual" value="0.5"/>
						</Node>
					</Node>
				</TreeModel>
			</Segment>
			<Segment id="70">
				<True/>
				<TreeModel functionName="regression" missingValueStrategy="nullPrediction" noTrueChildStrategy="returnLastPrediction">
					<MiningSchema>
						<MiningField name="double(x94)"/>
						<MiningField name="double(x39)"/>
					</MiningSchema>
					<Node score="10.258620689655173">
						<True/>
						<Node score="11.44">
							<SimplePredicate field="double(x94)" operator="lessOrEqual" value="0.6619733572006226"/>
							<Node score="4.877551020408164">
								<SimplePredicate field="double(x39)" operator="lessOrEqual" value="0.25"/>
							</Node>
						</Node>
						<Node score="12.26865671641791">
							<SimplePredicate field="double(x94)" operator="lessOrEqual" value="0.6858969926834106"/>
						</Node>
					</Node>
				</TreeModel>
			</Segment>
			<Segment id="71">
				<True/>
				<TreeModel functionName="regression" missingValueStrategy="nullPrediction" noTrueChildStrategy="returnLastPrediction">
					<MiningSchema>
						<MiningField name="double(x94)"/>
						<MiningField name="double(x39)"/>
					</MiningSchema>
					<Node score="10.18939393939394">
						<True/>
						<Node score="11.925925925925926">
							<SimplePredicate field="double(x94)" operator="lessOrEqual" value="0.6596990525722504"/>
							<Node score="4.394736842105263">
								<SimplePredicate field="double(x39)" operator="lessOrEqual" value="0.25"/>
							</Node>
						</Node>
						<Node score="12.166666666666666">
							<SimplePredicate field="double(x94)" operator="lessOrEqual" value="0.6858969926834106"/>
						</Node>
					</Node>
				</TreeModel>
			</Segment>
			<Segment id="72">
				<True/>
				<TreeModel functionName="regression" missingValueStrategy="nullPrediction" noTrueChildStrategy="returnLastPrediction">
					<MiningSchema>
						<MiningField name="double(x94)"/>
						<MiningField name="double(x39)"/>
					</MiningSchema>
					<Node score="10.156716417910447">
						<True/>
						<Node score="11.25">
							<SimplePredicate field="double(x94)" operator="lessOrEqual" value="0.6619733572006226"/>
							<Node score="3.9655172413793105">
								<SimplePredicate field="double(x39)" operator="lessOrEqual" value="0.25"/>
							</Node>
						</Node>
						<Node score="12.076923076923077">
							<SimplePredicate field="double(x94)" operator="lessOrEqual" value="0.6858969926834106"/>
						</Node>
					</Node>
				</TreeModel>
			</Segment>
			<Segment id="73">
				<True/>
				<TreeModel functionName="regression" missingValueStrategy="nullPrediction" noTrueChildStrategy="returnLastPrediction">
					<MiningSchema>
						<MiningField name="double(x94)"/>
					</MiningSchema>
					<Node score="10.26865671641791">
						<True/>
						<Node score="4.361111111111111">
							<SimplePredicate field="double(x94)" operator="lessOrEqual" value="0.6596990525722504"/>
							<Node score="14.0">
								<SimplePredicate field="double(x94)" operator="lessOrEqual" value="0.6034143269062042"/>
							</Node>
						</Node>
						<Node score="12.18918918918919">
							<SimplePredicate field="double(x94)" operator="lessOrEqual" value="0.6858969926834106"/>
						</Node>
					</Node>
				</TreeModel>
			</Segment>
			<Segment id="74">
				<True/>
				<TreeModel functionName="regression" missingValueStrategy="nullPrediction" noTrueChildStrategy="returnLastPrediction">
					<MiningSchema>
						<MiningField name="double(x94)"/>
						<MiningField name="double(x16)"/>
						<MiningField name="double(x9)"/>
					</MiningSchema>
					<Node score="10.22429906542056">
						<True/>
						<Node score="10.720588235294118">
							<SimplePredicate field="double(x16)" operator="lessOrEqual" value="0.48076922446489334"/>
							<Node score="14.0">
								<SimplePredicate field="double(x9)" operator="lessOrEqual" value="0.04838709533214569"/>
							</Node>
						</Node>
						<Node score="5.23404255319149">
							<SimplePredicate field="double(x94)" operator="lessOrEqual" value="0.6619733572006226"/>
						</Node>
					</Node>
				</TreeModel>
			</Segment>
			<Segment id="75">
				<True/>
				<TreeModel functionName="regression" missingValueStrategy="nullPrediction" noTrueChildStrategy="returnLastPrediction">
					<MiningSchema>
						<MiningField name="double(x94)"/>
					</MiningSchema>
					<Node score="10.405594405594405">
						<True/>
						<Node score="5.382978723404255">
							<SimplePredicate field="double(x94)" operator="lessOrEqual" value="0.6619733572006226"/>
							<Node score="14.0">
								<SimplePredicate field="double(x94)" operator="lessOrEqual" value="0.6034143269062042"/>
							</Node>
						</Node>
						<Node score="12.24561403508772">
							<SimplePredicate field="double(x94)" operator="lessOrEqual" value="0.6858969926834106"/>
						</Node>
					</Node>
				</TreeModel>
			</Segment>
			<Segment id="76">
				<True/>
				<TreeModel functionName="regression" missingValueStrategy="nullPrediction" noTrueChildStrategy="returnLastPrediction">
					<MiningSchema>
						<MiningField name="double(x94)"/>
						<MiningField name="double(x72)"/>
						<MiningField name="double(x16)"/>
					</MiningSchema>
					<Node score="9.272">
						<True/>
						<Node score="3.0">
							<SimplePredicate field="double(x72)" operator="lessOrEqual" value="0.5"/>
							<Node score="12.06140350877193">
								<SimplePredicate field="double(x16)" operator="lessOrEqual" value="0.48076922446489334"/>
							</Node>
						</Node>
						<Node score="3.0">
							<SimplePredicate field="double(x94)" operator="lessOrEqual" value="0.6186458170413971"/>
						</Node>
					</Node>
				</TreeModel>
			</Segment>
			<Segment id="77">
				<True/>
				<TreeModel functionName="regression" missingValueStrategy="nullPrediction" noTrueChildStrategy="returnLastPrediction">
					<MiningSchema>
						<MiningField name="double(x94)"/>
						<MiningField name="double(x39)"/>
						<MiningField name="double(x86)"/>
					</MiningSchema>
					<Node score="10.136842105263158">
						<True/>
						<Node score="10.568627450980392">
							<SimplePredicate field="double(x39)" operator="lessOrEqual" value="0.25"/>
							<Node score="4.428571428571429">
								<SimplePredicate field="double(x94)" operator="lessOrEqual" value="0.6619733572006226"/>
							</Node>
						</Node>
						<Node score="12.27536231884058">
							<SimplePredicate field="double(x86)" operator="lessOrEqual" value="0.5"/>
						</Node>
					</Node>
				</TreeModel>
			</Segment>
			<Segment id="78">
				<True/>
				<TreeModel functionName="regression" missingValueStrategy="nullPrediction" noTrueChildStrategy="returnLastPrediction">
					<MiningSchema>
						<MiningField name="double(x16)"/>
						<MiningField name="double(x1)"/>
						<MiningField name="double(x73)"/>
					</MiningSchema>
					<Node score="9.5">
						<True/>
						<Node score="10.829545454545455">
							<SimplePredicate field="double(x16)" operator="lessOrEqual" value="0.48076922446489334"/>
							<Node score="14.0">
								<SimplePredicate field="double(x1)" operator="lessOrEqual" value="0.04838709533214569"/>
							</Node>
						</Node>
						<Node score="4.931034482758621">
							<SimplePredicate field="double(x73)" operator="lessOrEqual" value="0.27419354021549225"/>
						</Node>
					</Node>
				</TreeModel>
			</Segment>
			<Segment id="79">
				<True/>
				<TreeModel functionName="regression" missingValueStrategy="nullPrediction" noTrueChildStrategy="returnLastPrediction">
					<MiningSchema>
						<MiningField name="double(x94)"/>
						<MiningField name="double(x39)"/>
						<MiningField name="double(x1)"/>
					</MiningSchema>
					<Node score="10.727272727272727">
						<True/>
						<Node score="10.787234042553191">
							<SimplePredicate field="double(x39)" operator="lessOrEqual" value="0.25"/>
							<Node score="4.549019607843137">
								<SimplePredicate field="double(x94)" operator="lessOrEqual" value="0.6619733572006226"/>
							</Node>
						</Node>
						<Node score="13.703703703703704">
							<SimplePredicate field="double(x1)" operator="lessOrEqual" value="0.04838709533214569"/>
						</Node>
					</Node>
				</TreeModel>
			</Segment>
			<Segment id="80">
				<True/>
				<TreeModel functionName="regression" missingValueStrategy="nullPrediction" noTrueChildStrategy="returnLastPrediction">
					<MiningSchema>
						<MiningField name="double(x94)"/>
					</MiningSchema>
					<Node score="10.356060606060606">
						<True/>
						<Node score="5.456140350877193">
							<SimplePredicate field="double(x94)" operator="lessOrEqual" value="0.6619733572006226"/>
							<Node score="14.0">
								<SimplePredicate field="double(x94)" operator="lessOrEqual" value="0.6034143269062042"/>
							</Node>
						</Node>
						<Node score="12.431372549019608">
							<SimplePredicate field="double(x94)" operator="lessOrEqual" value="0.6858969926834106"/>
						</Node>
					</Node>
				</TreeModel>
			</Segment>
			<Segment id="81">
				<True/>
				<TreeModel functionName="regression" missingValueStrategy="nullPrediction" noTrueChildStrategy="returnLastPrediction">
					<MiningSchema>
						<MiningField name="double(x94)"/>
						<MiningField name="double(x16)"/>
						<MiningField name="double(x5)"/>
					</MiningSchema>
					<Node score="10.172413793103448">
						<True/>
						<Node score="11.14864864864865">
							<SimplePredicate field="double(x16)" operator="lessOrEqual" value="0.48076922446489334"/>
							<Node score="14.0">
								<SimplePredicate field="double(x5)" operator="lessOrEqual" value="0.04838709533214569"/>
							</Node>
						</Node>
						<Node score="6.410256410256411">
							<SimplePredicate field="double(x94)" operator="lessOrEqual" value="0.6596990525722504"/>
						</Node>
					</Node>
				</TreeModel>
			</Segment>
			<Segment id="82">
				<True/>
				<TreeModel functionName="regression" missingValueStrategy="nullPrediction" noTrueChildStrategy="returnLastPrediction">
					<MiningSchema>
						<MiningField name="double(x94)"/>
						<MiningField name="double(x72)"/>
						<MiningField name="double(x39)"/>
					</MiningSchema>
					<Node score="10.043010752688172">
						<True/>
						<Node score="10.588235294117647">
							<SimplePredicate field="double(x39)" operator="lessOrEqual" value="0.25"/>
							<Node score="3.864864864864865">
								<SimplePredicate field="double(x94)" operator="lessOrEqual" value="0.6619733572006226"/>
							</Node>
						</Node>
						<Node score="12.368421052631579">
							<SimplePredicate field="double(x72)" operator="lessOrEqual" value="0.5"/>
						</Node>
					</Node>
				</TreeModel>
			</Segment>
			<Segment id="83">
				<True/>
				<TreeModel functionName="regression" missingValueStrategy="nullPrediction" noTrueChildStrategy="returnLastPrediction">
					<MiningSchema>
						<MiningField name="double(x94)"/>
						<MiningField name="double(x16)"/>
						<MiningField name="double(x86)"/>
					</MiningSchema>
					<Node score="10.186440677966102">
						<True/>
						<Node score="3.0">
							<SimplePredicate field="double(x86)" operator="lessOrEqual" value="0.5"/>
							<Node score="12.123595505617978">
								<SimplePredicate field="double(x16)" operator="lessOrEqual" value="0.48076922446489334"/>
							</Node>
						</Node>
						<Node score="6.3478260869565215">
							<SimplePredicate field="double(x94)" operator="lessOrEqual" value="0.6619733572006226"/>
						</Node>
					</Node>
				</TreeModel>
			</Segment>
			<Segment id="84">
				<True/>
				<TreeModel functionName="regression" missingValueStrategy="nullPrediction" noTrueChildStrategy="returnLastPrediction">
					<MiningSchema>
						<MiningField name="double(x94)"/>
						<MiningField name="double(x39)"/>
					</MiningSchema>
					<Node score="10.192592592592593">
						<True/>
						<Node score="11.166666666666666">
							<SimplePredicate field="double(x94)" operator="lessOrEqual" value="0.6619733572006226"/>
							<Node score="3.8205128205128207">
								<SimplePredicate field="double(x39)" operator="lessOrEqual" value="0.25"/>
							</Node>
						</Node>
						<Node score="12.033898305084746">
							<SimplePredicate field="double(x94)" operator="lessOrEqual" value="0.6858969926834106"/>
						</Node>
					</Node>
				</TreeModel>
			</Segment>
			<Segment id="85">
				<True/>
				<TreeModel functionName="regression" missingValueStrategy="nullPrediction" noTrueChildStrategy="returnLastPrediction">
					<MiningSchema>
						<MiningField name="double(x94)"/>
					</MiningSchema>
					<Node score="10.319148936170214">
						<True/>
						<Node score="5.074074074074074">
							<SimplePredicate field="double(x94)" operator="lessOrEqual" value="0.6619733572006226"/>
							<Node score="14.0">
								<SimplePredicate field="double(x94)" operator="lessOrEqual" value="0.6034143269062042"/>
							</Node>
						</Node>
						<Node score="12.085106382978724">
							<SimplePredicate field="double(x94)" operator="lessOrEqual" value="0.6858969926834106"/>
						</Node>
					</Node>
				</TreeModel>
			</Segment>
			<Segment id="86">
				<True/>
				<TreeModel functionName="regression" missingValueStrategy="nullPrediction" noTrueChildStrategy="returnLastPrediction">
					<MiningSchema>
						<MiningField name="double(x94)"/>
						<MiningField name="double(x39)"/>
						<MiningField name="double(x1)"/>
					</MiningSchema>
					<Node score="10.65986394557823">
						<True/>
						<Node score="10.545454545454545">
							<SimplePredicate field="double(x39)" operator="lessOrEqual" value="0.25"/>
							<Node score="5.641025641025641">
								<SimplePredicate field="double(x94)" operator="lessOrEqual" value="0.6619733572006226"/>
							</Node>
						</Node>
						<Node score="13.407407407407407">
							<SimplePredicate field="double(x1)" operator="lessOrEqual" value="0.04838709533214569"/>
						</Node>
					</Node>
				</TreeModel>
			</Segment>
			<Segment id="87">
				<True/>
				<TreeModel functionName="regression" missingValueStrategy="nullPrediction" noTrueChildStrategy="returnLastPrediction">
					<MiningSchema>
						<MiningField name="double(x94)"/>
						<MiningField name="double(x39)"/>
					</MiningSchema>
					<Node score="10.221374045801527">
						<True/>
						<Node score="10.695652173913043">
							<SimplePredicate field="double(x94)" operator="lessOrEqual" value="0.6619733572006226"/>
							<Node score="4.454545454545454">
								<SimplePredicate field="double(x39)" operator="lessOrEqual" value="0.25"/>
							</Node>
						</Node>
						<Node score="12.542372881355933">
							<SimplePredicate field="double(x94)" operator="lessOrEqual" value="0.6858969926834106"/>
						</Node>
					</Node>
				</TreeModel>
			</Segment>
			<Segment id="88">
				<True/>
				<TreeModel functionName="regression" missingValueStrategy="nullPrediction" noTrueChildStrategy="returnLastPrediction">
					<MiningSchema>
						<MiningField name="double(x94)"/>
						<MiningField name="double(x16)"/>
						<MiningField name="double(x52)"/>
					</MiningSchema>
					<Node score="10.20754716981132">
						<True/>
						<Node score="10.988095238095237">
							<SimplePredicate field="double(x16)" operator="lessOrEqual" value="0.48076922446489334"/>
							<Node score="14.0">
								<SimplePredicate field="double(x52)" operator="lessOrEqual" value="0.04838709533214569"/>
							</Node>
						</Node>
						<Node score="5.916666666666667">
							<SimplePredicate field="double(x94)" operator="lessOrEqual" value="0.6619733572006226"/>
						</Node>
					</Node>
				</TreeModel>
			</Segment>
			<Segment id="89">
				<True/>
				<TreeModel functionName="regression" missingValueStrategy="nullPrediction" noTrueChildStrategy="returnLastPrediction">
					<MiningSchema>
						<MiningField name="double(x94)"/>
						<MiningField name="double(x72)"/>
						<MiningField name="double(x16)"/>
					</MiningSchema>
					<Node score="10.098214285714286">
						<True/>
						<Node score="3.0">
							<SimplePredicate field="double(x72)" operator="lessOrEqual" value="0.5"/>
							<Node score="12.177570093457945">
								<SimplePredicate field="double(x16)" operator="lessOrEqual" value="0.48076922446489334"/>
							</Node>
						</Node>
						<Node score="6.294117647058823">
							<SimplePredicate field="double(x94)" operator="lessOrEqual" value="0.6619733572006226"/>
						</Node>
					</Node>
				</TreeModel>
			</Segment>
			<Segment id="90">
				<True/>
				<TreeModel functionName="regression" missingValueStrategy="nullPrediction" noTrueChildStrategy="returnLastPrediction">
					<MiningSchema>
						<MiningField name="double(x94)"/>
						<MiningField name="double(x39)"/>
					</MiningSchema>
					<Node score="10.226277372262773">
						<True/>
						<Node score="11.285714285714286">
							<SimplePredicate field="double(x94)" operator="lessOrEqual" value="0.6619733572006226"/>
							<Node score="4.694444444444445">
								<SimplePredicate field="double(x39)" operator="lessOrEqual" value="0.25"/>
							</Node>
						</Node>
						<Node score="11.892857142857142">
							<SimplePredicate field="double(x94)" operator="lessOrEqual" value="0.6858969926834106"/>
						</Node>
					</Node>
				</TreeModel>
			</Segment>
			<Segment id="91">
				<True/>
				<TreeModel functionName="regression" missingValueStrategy="nullPrediction" noTrueChildStrategy="returnLastPrediction">
					<MiningSchema>
						<MiningField name="double(x94)"/>
						<MiningField name="double(x16)"/>
						<MiningField name="double(x5)"/>
					</MiningSchema>
					<Node score="9.555555555555555">
						<True/>
						<Node score="10.710144927536232">
							<SimplePredicate field="double(x16)" operator="lessOrEqual" value="0.48076922446489334"/>
							<Node score="14.0">
								<SimplePredicate field="double(x5)" operator="lessOrEqual" value="0.04838709533214569"/>
							</Node>
						</Node>
						<Node score="3.0">
							<SimplePredicate field="double(x94)" operator="lessOrEqual" value="0.6186458170413971"/>
						</Node>
					</Node>
				</TreeModel>
			</Segment>
			<Segment id="92">
				<True/>
				<TreeModel functionName="regression" missingValueStrategy="nullPrediction" noTrueChildStrategy="returnLastPrediction">
					<MiningSchema>
						<MiningField name="double(x94)"/>
						<MiningField name="double(x39)"/>
						<MiningField name="double(x45)"/>
					</MiningSchema>
					<Node score="13.481481481481481">
						<True/>
						<Node score="10.540983606557377">
							<SimplePredicate field="double(x39)" operator="lessOrEqual" value="0.25"/>
							<Node score="4.479166666666667">
								<SimplePredicate field="double(x94)" operator="lessOrEqual" value="0.6619733572006226"/>
							</Node>
						</Node>
						<Node score="10.636363636363637">
							<SimplePredicate field="double(x45)" operator="lessOrEqual" value="0.75"/>
						</Node>
					</Node>
				</TreeModel>
			</Segment>
			<Segment id="93">
				<True/>
				<TreeModel functionName="regression" missingValueStrategy="nullPrediction" noTrueChildStrategy="returnLastPrediction">
					<MiningSchema>
						<MiningField name="double(x94)"/>
						<MiningField name="double(x39)"/>
					</MiningSchema>
					<Node score="10.291044776119403">
						<True/>
						<Node score="11.833333333333334">
							<SimplePredicate field="double(x94)" operator="lessOrEqual" value="0.6619733572006226"/>
							<Node score="4.666666666666667">
								<SimplePredicate field="double(x39)" operator="lessOrEqual" value="0.25"/>
							</Node>
						</Node>
						<Node score="12.416666666666666">
							<SimplePredicate field="double(x94)" operator="lessOrEqual" value="0.6858969926834106"/>
						</Node>
					</Node>
				</TreeModel>
			</Segment>
			<Segment id="94">
				<True/>
				<TreeModel functionName="regression" missingValueStrategy="nullPrediction" noTrueChildStrategy="returnLastPrediction">
					<MiningSchema>
						<MiningField name="double(x94)"/>
					</MiningSchema>
					<Node score="10.185185185185185">
						<True/>
						<Node score="5.1">
							<SimplePredicate field="double(x94)" operator="lessOrEqual" value="0.6619733572006226"/>
							<Node score="14.0">
								<SimplePredicate field="double(x94)" operator="lessOrEqual" value="0.6034143269062042"/>
							</Node>
						</Node>
						<Node score="12.068965517241379">
							<SimplePredicate field="double(x94)" operator="lessOrEqual" value="0.6858969926834106"/>
						</Node>
					</Node>
				</TreeModel>
			</Segment>
			<Segment id="95">
				<True/>
				<TreeModel functionName="regression" missingValueStrategy="nullPrediction" noTrueChildStrategy="returnLastPrediction">
					<MiningSchema>
						<MiningField name="double(x94)"/>
						<MiningField name="double(x16)"/>
						<MiningField name="double(x86)"/>
					</MiningSchema>
					<Node score="10.26271186440678">
						<True/>
						<Node score="3.0">
							<SimplePredicate field="double(x86)" operator="lessOrEqual" value="0.5"/>
							<Node score="12.362637362637363">
								<SimplePredicate field="double(x16)" operator="lessOrEqual" value="0.48076922446489334"/>
							</Node>
						</Node>
						<Node score="7.2">
							<SimplePredicate field="double(x94)" operator="lessOrEqual" value="0.6619733572006226"/>
						</Node>
					</Node>
				</TreeModel>
			</Segment>
			<Segment id="96">
				<True/>
				<TreeModel functionName="regression" missingValueStrategy="nullPrediction" noTrueChildStrategy="returnLastPrediction">
					<MiningSchema>
						<MiningField name="double(x94)"/>
						<MiningField name="double(x16)"/>
						<MiningField name="double(x9)"/>
					</MiningSchema>
					<Node score="10.183673469387756">
						<True/>
						<Node score="11.0561797752809">
							<SimplePredicate field="double(x16)" operator="lessOrEqual" value="0.48076922446489334"/>
							<Node score="14.0">
								<SimplePredicate field="double(x9)" operator="lessOrEqual" value="0.04838709533214569"/>
							</Node>
						</Node>
						<Node score="5.644444444444445">
							<SimplePredicate field="double(x94)" operator="lessOrEqual" value="0.6619733572006226"/>
						</Node>
					</Node>
				</TreeModel>
			</Segment>
			<Segment id="97">
				<True/>
				<TreeModel functionName="regression" missingValueStrategy="nullPrediction" noTrueChildStrategy="returnLastPrediction">
					<MiningSchema>
						<MiningField name="double(x94)"/>
						<MiningField name="double(x39)"/>
					</MiningSchema>
					<Node score="10.286764705882353">
						<True/>
						<Node score="11.333333333333334">
							<SimplePredicate field="double(x94)" operator="lessOrEqual" value="0.6619733572006226"/>
							<Node score="4.325">
								<SimplePredicate field="double(x39)" operator="lessOrEqual" value="0.25"/>
							</Node>
						</Node>
						<Node score="12.185185185185185">
							<SimplePredicate field="double(x94)" operator="lessOrEqual" value="0.6858969926834106"/>
						</Node>
					</Node>
				</TreeModel>
			</Segment>
			<Segment id="98">
				<True/>
				<TreeModel functionName="regression" missingValueStrategy="nullPrediction" noTrueChildStrategy="returnLastPrediction">
					<MiningSchema>
						<MiningField name="double(x94)"/>
						<MiningField name="double(x16)"/>
						<MiningField name="double(x50)"/>
					</MiningSchema>
					<Node score="10.198019801980198">
						<True/>
						<Node score="3.0">
							<SimplePredicate field="double(x16)" operator="lessOrEqual" value="0.48076922446489334"/>
							<Node score="11.97196261682243">
								<SimplePredicate field="double(x50)" operator="lessOrEqual" value="0.5"/>
							</Node>
						</Node>
						<Node score="5.282608695652174">
							<SimplePredicate field="double(x94)" operator="lessOrEqual" value="0.6619733572006226"/>
						</Node>
					</Node>
				</TreeModel>
			</Segment>
			<Segment id="99">
				<True/>
				<TreeModel functionName="regression" missingValueStrategy="nullPrediction" noTrueChildStrategy="returnLastPrediction">
					<MiningSchema>
						<MiningField name="double(x94)"/>
					</MiningSchema>
					<Node score="10.193798449612403">
						<True/>
						<Node score="6.142857142857143">
							<SimplePredicate field="double(x94)" operator="lessOrEqual" value="0.6619733572006226"/>
							<Node score="14.0">
								<SimplePredicate field="double(x94)" operator="lessOrEqual" value="0.6034143269062042"/>
							</Node>
						</Node>
						<Node score="12.184615384615384">
							<SimplePredicate field="double(x94)" operator="lessOrEqual" value="0.6858969926834106"/>
						</Node>
					</Node>
				</TreeModel>
			</Segment>
			<Segment id="100">
				<True/>
				<TreeModel functionName="regression" missingValueStrategy="nullPrediction" noTrueChildStrategy="returnLastPrediction">
					<MiningSchema>
						<MiningField name="double(x94)"/>
						<MiningField name="double(x72)"/>
						<MiningField name="double(x39)"/>
					</MiningSchema>
					<Node score="10.273809523809524">
						<True/>
						<Node score="10.452830188679245">
							<SimplePredicate field="double(x39)" operator="lessOrEqual" value="0.25"/>
							<Node score="5.5777777777777775">
								<SimplePredicate field="double(x94)" operator="lessOrEqual" value="0.6619733572006226"/>
							</Node>
						</Node>
						<Node score="12.106666666666667">
							<SimplePredicate field="double(x72)" operator="lessOrEqual" value="0.5"/>
						</Node>
					</Node>
				</TreeModel>
			</Segment>
		</Segmentation>
	</MiningModel>
</PMML>
